00000000000000000
00000000000000000
00000000000000000
00000000000000000
00000000000000000
00000000000000000
00000000000000000
00000000000000000
00000000000000000
00000000000000000
00000000000000000
00000000000000000
00000000000000000
00000000000000000
00000000000000000
00000000000000000
00000000000000000
00000000000000000
00000000000000000
00000000000000000
00000000000000000
00000000000000000
00000000000000000
00000000000000000
00000000000000000
00000000000000000
00000000000000000
00000000000000000
00000000000000000
00000000000000000
00000000000000000
00000000000000000
01001100001011110
01010101111111101
01011001111100110
01001001010000000
01000010001100001
01000010110010000
01000001011000100
00111101011110011
01001001111011111
01010001111010100
01010100101011001
01000110100111000
00111101001001111
00111000110111001
01000000000001100
01010110110010111
01001000110110101
01000001101111100
00111111000101011
01000101100010100
01011011000001101
01010011111001111
01010011000010010
01000001101110101
01011111001101100
00000000000000000
00000000000000000
00000000000000000
00000000000000000
00000000000000000
00000000000000000
00000000000000000
