00000000000000000
00000000000000000
00000000000000000
00000000000000000
00000000000000000
00000000000000000
00000000000000000
00000000000000000
00000000000000000
00000000000000000
00000000000000000
00000000000000000
00000000000000000
00000000000000000
00000000000000000
00000000000000000
00000000000000000
00000000000000000
00000000000000000
00000000000000000
00000000000000000
00000000000000000
00000000000000000
00000000000000000
00000000000000000
00000000000000000
00000000000000000
00000000000000000
00000000000000000
00000000000000000
00000000000000000
00000000000000000
01011011100111110
00111100011000110
01010100111110011
01010000110010010
00110001100001000
00111010000001111
01001111010101011
01010101000111000
01001010001001101
01001110000010000
01010011101000010
01010000000000010
00111010000001110
01001110111110001
01000101110011100
01010100000011001
01000110011010000
01000001001010000
01001010011001010
01010010011010101
01011111111000100
00111010110011011
01000100100110111
01010001111110010
01000011100111000
00000000000000000
00000000000000000
00000000000000000
00000000000000000
00000000000000000
00000000000000000
00000000000000000
