00000000000000000
00000000000000000
00000000000000000
00000000000000000
00000000000000000
00000000000000000
00000000000000000
00000000000000000
00000000000000000
00000000000000000
00000000000000000
00000000000000000
00000000000000000
00000000000000000
00000000000000000
00000000000000000
00000000000000000
00000000000000000
00000000000000000
00000000000000000
00000000000000000
00000000000000000
00000000000000000
00000000000000000
00000000000000000
00000000000000000
00000000000000000
00000000000000000
00000000000000000
00000000000000000
00000000000000000
00000000000000000
01101010111000100
01000111000100111
00111100000100111
01010000111001100
01000100011111110
01000000111011010
01001011101010000
01010100110101110
01010111100111100
01000111000001010
01001011100111100
01000111100111110
01001011011101111
00110100110010111
01001101110111110
01001000000100011
00111110101100111
01000100111101100
01000111000011101
00111001101111010
01001010100010000
01100110011001001
01000010111101111
01000110011111100
00110111000000111
00000000000000000
00000000000000000
00000000000000000
00000000000000000
00000000000000000
00000000000000000
00000000000000000
