00000000000000000
00000000000000000
00000000000000000
00000000000000000
00000000000000000
00000000000000000
00000000000000000
00000000000000000
00000000000000000
00000000000000000
00000000000000000
00000000000000000
00000000000000000
00000000000000000
00000000000000000
00000000000000000
00000000000000000
00000000000000000
00000000000000000
00000000000000000
00000000000000000
00000000000000000
00000000000000000
00000000000000000
00000000000000000
00000000000000000
00000000000000000
00000000000000000
00000000000000000
00000000000000000
00000000000000000
00000000000000000
01011111111010000
01000111101101110
01000110010011100
01001000110001011
00111110001011001
01010011111011111
01010101101110011
01001010001010011
01001111100001101
01001100100111100
00110101111001011
00110100000000010
01001001010111110
01001011000000111
00111110000001110
01010011000100111
00111110100101001
01001000111000111
01001000001110011
01010000110010001
01010100001011111
01001111000010111
01100010101110101
01000011110010110
00111100100100010
00000000000000000
00000000000000000
00000000000000000
00000000000000000
00000000000000000
00000000000000000
00000000000000000
