00000000000000000
00000000000000000
00000000000000000
00000000000000000
00000000000000000
00000000000000000
00000000000000000
00000000000000000
00000000000000000
00000000000000000
00000000000000000
00000000000000000
00000000000000000
00000000000000000
00000000000000000
00000000000000000
00000000000000000
00000000000000000
00000000000000000
00000000000000000
00000000000000000
00000000000000000
00000000000000000
00000000000000000
00000000000000000
00000000000000000
00000000000000000
00000000000000000
00000000000000000
00000000000000000
00000000000000000
00000000000000000
01010101101101001
00111110110111011
00110110110011100
00111111001011000
00111000010100011
01010110001010101
01000000000100001
01000000100011111
01001111111000010
01010010101110110
01011101101101110
01001010110011000
01000010111001101
01001110111010000
01001010011011110
01010111110101110
01000110101101110
01001001111111011
01001101011111001
01000110100001110
01001000111110010
01001111111000101
01010010101001010
01000110010101010
01001000101110000
00000000000000000
00000000000000000
00000000000000000
00000000000000000
00000000000000000
00000000000000000
00000000000000000
