00000000000000000
00000000000000000
00000000000000000
00000000000000000
00000000000000000
00000000000000000
00000000000000000
00000000000000000
00000000000000000
00000000000000000
00000000000000000
00000000000000000
00000000000000000
00000000000000000
00000000000000000
00000000000000000
00000000000000000
00000000000000000
00000000000000000
00000000000000000
00000000000000000
00000000000000000
00000000000000000
00000000000000000
00000000000000000
00000000000000000
00000000000000000
00000000000000000
00000000000000000
00000000000000000
00000000000000000
00000000000000000
01011111101111000
01010111011001001
01001111000000000
00111101011100110
01001010010100011
00110000001100101
01010111000011110
00111001111001011
01010011010010111
01010011011011100
01000010011101100
01000110010100010
00111110010100110
01010001110000110
00110010011111011
00110100100011001
01000100011011010
00111101001101101
01011011001110100
01011001101101101
01000001100101000
00110111100111100
01010100101111100
01001100110100111
01001000111110010
00000000000000000
00000000000000000
00000000000000000
00000000000000000
00000000000000000
00000000000000000
00000000000000000
