00000000000000000
00000000000000000
00000000000000000
00000000000000000
00000000000000000
00000000000000000
00000000000000000
00000000000000000
00000000000000000
00000000000000000
00000000000000000
00000000000000000
00000000000000000
00000000000000000
00000000000000000
00000000000000000
00000000000000000
00000000000000000
00000000000000000
00000000000000000
00000000000000000
00000000000000000
00000000000000000
00000000000000000
00000000000000000
00000000000000000
00000000000000000
00000000000000000
00000000000000000
00000000000000000
00000000000000000
00000000000000000
01010011001110101
01001010110101000
01010010011110010
01001101110111000
00110111011011001
01001111110000000
01001100001001001
01000111011000110
01001100010010110
01000001011010110
01000011011110101
01001010011011010
00111010111010011
00110011111010000
00111101011111101
00111111001010110
01000111010101000
00111110010011100
01010011110010000
01000011000110011
01010101101111000
01010000100100000
01010011010111001
01000001101010011
01001110010001001
00000000000000000
00000000000000000
00000000000000000
00000000000000000
00000000000000000
00000000000000000
00000000000000000
