00000000000000000
00000000000000000
00000000000000000
00000000000000000
00000000000000000
00000000000000000
00000000000000000
00000000000000000
00000000000000000
00000000000000000
00000000000000000
00000000000000000
00000000000000000
00000000000000000
00000000000000000
00000000000000000
00000000000000000
00000000000000000
00000000000000000
00000000000000000
00000000000000000
00000000000000000
00000000000000000
00000000000000000
00000000000000000
00000000000000000
00000000000000000
00000000000000000
00000000000000000
00000000000000000
00000000000000000
00000000000000000
01001001000100100
01010001011100011
01010011000001101
01000100001101010
01000001001010100
01000101011111111
01010110110001101
01011000010011110
01010100001110001
01001111111100110
01011001011000110
01010100101010100
01001101010100111
00111110100010110
01001011011011000
01001000101101001
00111110101101001
01000010100111101
01000110010111011
01001101011100000
01001000111010111
01001000111101010
01011101111001011
01010001110100100
01000011101100000
00000000000000000
00000000000000000
00000000000000000
00000000000000000
00000000000000000
00000000000000000
00000000000000000
